/**
  ******************************************************************************
  * @file    network_data_params.c
  * @author  AST Embedded Analytics Research Platform
  * @date    Fri Sep 30 18:50:57 2022
  * @brief   AI Tool Automatic Code Generator for Embedded NN computing
  ******************************************************************************
  * Copyright (c) 2022 STMicroelectronics.
  * All rights reserved.
  *
  * This software is licensed under terms that can be found in the LICENSE file
  * in the root directory of this software component.
  * If no LICENSE file comes with this software, it is provided AS-IS.
  ******************************************************************************
  */

#include "network_data_params.h"


/**  Activations Section  ****************************************************/
ai_handle g_network_activations_table[1 + 2] = {
  AI_HANDLE_PTR(AI_MAGIC_MARKER),
  AI_HANDLE_PTR(NULL),
  AI_HANDLE_PTR(AI_MAGIC_MARKER),
};




/**  Weights Section  ********************************************************/
AI_ALIGNED(32)
const ai_u64 s_network_weights_array_u64[661] = {
  0xbe8b530ebe33bcd2U, 0xbe0ba703be626277U, 0x3eb0fccf3e366c07U, 0x3ecd3fad3edc7626U,
  0x3deb465a3ebcb9d9U, 0xbed11f22bdeb09aaU, 0xbf11b697becb2accU, 0xbeaba0b2bef01f39U,
  0x3cd57f8ebe288c8fU, 0x3ee52c7c3ea95777U, 0x3f1c42a63f08ec09U, 0x3e48816f3ed2230cU,
  0xbe9594a7bda26757U, 0xbf28106bbf191746U, 0xbee53450bf102ccdU, 0x3dc397ebbdb6c9e4U,
  0x3f14e2de3ee5a3b5U, 0x3f01e10f3f25b6a4U, 0x3dd2d3873ed9200fU, 0xbed45288be5731a3U,
  0xbf13f525befbeb48U, 0xbeac3044befc4eb9U, 0x3e82d9dabe0fbebdU, 0x3f1586e83efa7ad4U,
  0x3eb470943f083b53U, 0xbd2c2b2b3e43c935U, 0xbee9e77dbebef11cU, 0xbeab6a27bec421d7U,
  0x3dba8cc2bdfaf54fU, 0x3de6534b3d4a6477U, 0x3e749fbe3e3e293eU, 0xbbebf66f3e16cf7cU,
  0xbdb7d713bcf9ed3eU, 0xbccc182ebdd1a7a8U, 0xbd571b1f3ccab489U, 0x3d1d529a3cee1dc7U,
  0x3c81f94d3d47ea7bU, 0x3bdaf7d6bb88e387U, 0x3db1a9a63bff72deU, 0x3d6d3e71bd5014a2U,
  0xbd34cc98bc657898U, 0x3d6dc5e8bca68d81U, 0x3e4ad00f3d1b92ecU, 0x3db620ff3e6870c3U,
  0x3c85a3943d7ff1deU, 0x3d22ae19bc3c415eU, 0xbe07e0bfbcd85ed8U, 0xbed779febe615104U,
  0xbe1d50a6be972b69U, 0x3e7f04ef3d1d7eddU, 0x3f13585b3eabe719U, 0x3ea98f2c3ee0eeffU,
  0xbe616abc3da3da3aU, 0xbf0f76edbede4179U, 0xbf10159cbf2d473fU, 0xbdaac0b0be9ce50dU,
  0x3f03c4393e53cc10U, 0x3f31fc953f2db12eU, 0x3e9c43373f0103cfU, 0xbed55d5ebd130927U,
  0xbf2f47fcbf349a36U, 0xbee71100bf21e49cU, 0x3e1c177cbe602c4bU, 0x3f2f68ed3eece5f0U,
  0x3ec3d3453f39464cU, 0xbdd680473d3f1c4dU, 0xbeecd6f9becb2eb2U, 0xbee576a2bf04d77cU,
  0xbe31500bbe895a00U, 0x3eaf35613e05dad3U, 0x3ee5eb323ec44596U, 0x3db1ab1e3ecf2b8aU,
  0xbe820470bdacc674U, 0xbe899890becca81fU, 0x3dd9edbdbdef681aU, 0x3e194fd73daa293bU,
  0x3dff35473da44fafU, 0xbd3ad77e3d7dc995U, 0x3c55bfddbd5ccbd2U, 0x3c8de1e13bcd3027U,
  0xbc880dee3bced78bU, 0x3d2603ff3dd7dfefU, 0xbd30f7703d98156fU, 0x3b580bccbcbbbfd3U,
  0xbdb852a53d150c72U, 0x3e573add3d59e57eU, 0x3e504b503e2dc436U, 0xbe756c6e3d9d0a20U,
  0xbeb4b6d2bedce667U, 0xbdb40e1bbea0a8d8U, 0x3eaf5b823e20db91U, 0x3ef4651b3f0ab6cbU,
  0x3ca3431e3ec7736fU, 0xbecf84f7be06f8a8U, 0xbf09700fbf179dafU, 0xbe645844bef64b9cU,
  0x3e93cf2f3daec454U, 0x3f37a3c23f15c2b2U, 0x3ecb72613f1057e6U, 0xbe1568c03dc9d48fU,
  0xbf1dc999beed2ad8U, 0xbef1c02ebf293bfbU, 0x3b53b551be7e9e0cU, 0x3ecd69cd3eb988cfU,
  0x3ef5bf9c3f110f74U, 0x3e54ad653ef6fc2fU, 0xbe80ff783a2ec142U, 0xbf14bdfbbf18e949U,
  0xbeb8e170bf059b97U, 0x3e63d42cbdbf0d63U, 0x3eff8b693eab94b0U, 0x3e8b02143ed8192dU,
  0xbe084dfd3d83afb6U, 0xbe4c8746be9c199cU, 0xbde29226be70895eU, 0x3e303566bb630194U,
  0x3e27abba3e2c8144U, 0xbdeb32263cf84d2eU, 0xbd7c8c21bd3c9d51U, 0x3d1a06f43c87628fU,
  0xbcfec1e0bcc841cbU, 0x3c734f97bb4e3feeU, 0x3ca9a1293d072778U, 0xbb16c942bdb8548cU,
  0xbd26db22bd13df9aU, 0xbd49deefbd83807aU, 0x3af584f23cb32fffU, 0xbdaacbfdbd293964U,
  0xbdafd010bdcb41e2U, 0xbf2002a5bf2116e3U, 0xbf1dda2abf1eee67U, 0xbf1bb1aebf1cc5ecU,
  0xbf198932bf1a9d70U, 0xbf1760b7bf1874f4U, 0xbf15383bbf164c79U, 0xbf130fbfbf1423fdU,
  0xbf105ed0bf11fb82U, 0xbf0ebec8bf0fd306U, 0xbf0c964cbf0d38d6U, 0xbf0a34d9bf0b820fU,
  0xbf084555bf095993U, 0xbf0644a0bf073117U, 0xbf03f45ebf058e1aU, 0xbf01cbe2bf02fc4cU,
  0xbeff46cdbf00b7a4U, 0xbefaf5d6befd49d0U, 0xbef6a4dfbef8b8b6U, 0xbef1ced5bef3f2e3U,
  0xbeee02f0bef13f0bU, 0xbeea75d3beeb3f7eU, 0xbee56102bee7897dU, 0xbee1100abee33886U,
  0xbedbdd64beddeb96U, 0xbed86e1cbeda9697U, 0xbed454a0bed645a0U, 0xbecec0b0bed2421cU,
  0xbecb7b36becd37bbU, 0xbec72841bec8ddccU, 0xbec20db0bec40988U, 0xbebeb17dbec04b8cU,
  0xbeba6c2ebebcdd52U, 0xbeb5c6c9beb7cb12U, 0xbeb08743beb3cdbaU, 0xbeac4812beaf5cc4U,
  0xbea8f7e6beaaceafU, 0xbea55649bea6cb00U, 0xbea02aedbea36124U, 0xbe9be6bfbe9e2c51U,
  0xbe973588be99792eU, 0xbe941302be958bf5U, 0xbe8e3e41be913036U, 0xbe89d759be8c7bddU,
  0xbe85908bbe88a21cU, 0xbe81e634be844a40U, 0xbe7ba980be80550cU, 0xbe74e687be768088U,
  0xbe6a2b7abe6f5a4eU, 0xbe61e020be65ea67U, 0xbe598763be5d3899U, 0xbe50fc6dbe550e17U,
  0xbe47caa5be4c55a4U, 0xbe3efc31be440256U, 0xbe365782be3b0ff6U, 0xbe2eb14fbe317d6eU,
  0xbe268c48be2a9287U, 0xbe1d824cbe218053U, 0xbe140dc8be17e0b0U, 0xbe0a24e0be0f8e63U,
  0xbe02c00ebe068d11U, 0xbdf4c300bdfd7598U, 0xbde32337bdeb91efU, 0xbdd2062fbdd9c151U,
  0xbdc2ae38bdca9d5cU, 0xbdaf1a67bdb8be4aU, 0xbd9dc9bbbda69344U, 0xbd8c2faabd9683eaU,
  0xbd76b084bd8471eeU, 0xbd536e0abd65ef9fU, 0xbd35b275bd44ebbbU, 0xbd0f6d32bd219707U,
  0xbcd627a0bcf5e0beU, 0xbc95c1b3bcb4e75eU, 0xbc1ef8e3bc67e2c5U, 0xbaaf5e3bbbba3781U,
  0x3be77b9c3b51b94aU, 0x3c7c530d3c3d198dU, 0x3cc498993ca06855U, 0x3d06fb893ce5d2c1U,
  0x3d27dea53d19bfd4U, 0x3d49df4e3d37b595U, 0x3d6c0e973d5b6b49U, 0x3d87b3e63d7f1b45U,
  0x3d98dc8d3d904f35U, 0x3dac23243da209f4U, 0x3dbd76f13db58e7eU, 0x3dcc57e13dc44d0bU,
  0x3dde2bb63dd4fa32U, 0x3df0c01f3de76f93U, 0x3e001fa13df866baU, 0x3e090ffb3e045488U,
  0x3e11180e3e0dba64U, 0x3e1ab8d63e1601e6U, 0x3e23a1e53e1fc4baU, 0x3e2b599b3e273af6U,
  0x3e34cb4f3e2fd7cfU, 0x3e3dee463e388026U, 0x3e4581933e41613bU, 0x3e4eca943e49d794U,
  0x3e569c273e52454aU, 0x3e5f30873e5ba702U, 0x3e68b42e3e62cd3dU, 0x3e7002983e6cbd64U,
  0x3e7857a23e757f13U, 0x3e817d5e3e7c7c1bU, 0x3e84fcb83e82edf2U, 0x3e8922743e86b44cU,
  0x3e8de4b23e8b1c0bU, 0x3e92381d3e900814U, 0x3e970c363e940ab6U, 0x3e9ac4f63e98dba3U,
  0x3e9f15ee3e9c1149U, 0x3ea3b55a3ea13e69U, 0x3ea845503ea5cc3eU, 0x3eaaeea43ea9d982U,
  0x3eb059cb3ead76b5U, 0x3eb4aac23eb28246U, 0x3eb8ebc73eb6d33eU, 0x3ebcdd4f3ebb2435U,
  0x3ec15b2c3ebf752cU, 0x3ec5ee9f3ec45215U, 0x3eca3f963ec8171bU, 0x3ece908e3ecc6812U,
  0x3ed2e1853ecfc2dbU, 0x3ed7327c3ed50a01U, 0x3edb83733ed95af8U, 0x3edfd46b3eddabefU,
  0x3ee425623ee1fce6U, 0xad84a4adafb0a19aU, 0x939393c6a6969b87U, 0x8fa89d89a298a8a8U,
  0x6db2ad9774b8a6b0U, 0xca9da9a7a1969a8bU, 0xcf9fa39aa37c9cabU, 0xad928f9dbfa89397U,
  0x81dbe1ccacd0bab0U, 0x90cacc817183c485U, 0x8598b779a6a2edc2U, 0x889f8d7b63646360U,
  0x92aca8aee18ba0c8U, 0x9a91a7ab787e757dU, 0x8a97daa28494b6c5U, 0x9ba5a58f938b7990U,
  0x8d9a92a19a92a19aU, 0x76676379968e8d96U, 0xbcb5aea0af9e6a77U, 0x8469826366a8969bU,
  0x4086868ab1acbe7aU, 0xbad4b7676d5a534eU, 0x3b5e9680afeddce3U, 0xc994907f583e3641U,
  0x957778b5b0a9c3d2U, 0x91948b708478787bU, 0x8d8d957b8f9aaaa2U, 0x95a788988c807d93U,
  0xafba86819c8c8793U, 0x844d4b4479415b9cU, 0xd6d4d7cfc7c47187U, 0x694b7d6e6b929a93U,
  0xa4699675685a687fU, 0xbab5cebcccdab9b2U, 0x96403d29525b6528U, 0x95b0abb9b2af978bU,
  0x929ab089a1959092U, 0x8e8b9789838b8893U, 0x8aaa96b099aaba7aU, 0x8f8c7d66796e957eU,
  0x6773949ea49da995U, 0xaf97a78c60757371U, 0x7f907dbea9c4aac3U, 0x888897ad9cc6be8dU,
  0xd8adaba889879099U, 0x817d84aa89a5dcffU, 0x95b89f9f76959491U, 0xaaa489ada08bb0aeU,
  0x7eb57c958fa49e9fU, 0x99949fefbdb69292U, 0x9387829d7f7e8d93U, 0xaba7b69e97d8a3bbU,
  0x77839b9c9687ad8dU, 0xa6a8b8c7a7bfc584U, 0x84867e94899296abU, 0x87a5aec3cd9988baU,
  0xad97aa9c9c8787a9U, 0xb0a9a79f88a98c9aU, 0x9b9a9c8ca0bfaf9aU, 0xb9cad39880a09a85U,
  0x7c867c9ba9b6a5afU, 0xa48498ad85888171U, 0x7688aca1b4c297a9U, 0x8492a4a1879f709dU,
  0x879f9981a28b9faeU, 0xab9a87839d907486U, 0xc1c4ca86978ba383U, 0xa184aea1a26b948dU,
  0x95949ad49eaba38cU, 0xa49c8c9d99829396U, 0xaba29793a587b4a2U, 0x999a9ba6a19fa7c2U,
  0xbef6a4b99fb98f88U, 0xab958986a7ab9db0U, 0x9fc0b5b6a9a4809fU, 0xa598a1babcb1a3a7U,
  0xbb8aa1be85b5aaaeU, 0x8db7b1b4c5acb8b1U, 0xacb1a2959c9fa9a7U, 0xa3a1adaaa6aaa8c8U,
  0xab9b847e98a8919dU, 0xa09cb6ab9bb6a9a3U, 0x9daf9d9479a88d90U, 0xad9d82aea6a6c797U,
  0xa29ba19ea59bada4U, 0xae92a2ac99b09dacU, 0xaa9f9ca4b3a7b0acU, 0x9394a3ac96b5a4a7U,
  0xaea3bcc7bf9fa193U, 0xb5a0aba9a69db2a7U, 0xac9c97839f83c2acU, 0x92989895a0b3cb9eU,
  0xa8a1b6a1a6a0aa97U, 0xa6a8ae96adaa98a8U, 0xa18c978d91a7a292U, 0x78a8ada3b7d3a294U,
  0xafa7b29ca88fa195U, 0xa8b98fa1a1989a96U, 0x9b797c7e907f81afU, 0xa5a9a59a9b949994U,
  0x5968ac9a97aeb1b8U, 0xb38789765e666e7aU, 0x717e65b9afc0bbaeU, 0xcbc88d92897a474cU,
  0x41584f67b9a0adc5U, 0xbbc9c4888b6e6076U, 0x5e8b9da094c5b7cfU, 0x83647a64596f606eU,
  0xcec9bea3ada69085U, 0x6f455f4a5ea79aaaU, 0xa9a5acb582888267U, 0x978885938699a9a4U,
  0x9f97829391918d9aU, 0x9ea59baa9a917e87U, 0x8580857c795f91a3U, 0x7479b5afa5aca8b6U,
  0xbe7b9f7d5a54698eU, 0x878b7388849dbdafU, 0xd5c3bac2bb78808aU, 0x4d2e2051855a74caU,
  0xc9d5e6abb27e4240U, 0x4b66836f81b9aeb2U, 0xb09da5a357605e34U, 0xbcb7abafbda5aeaaU,
  0x5b4f686388ae7992U, 0x72bda8a97d68706aU, 0xa7ab9e77857f6b77U, 0x5f4f8c8078b5b2abU,
  0xc8c9c9d399ab9856U, 0x1c1212614765bbb8U, 0xd9d6c6cec7697d7aU, 0x5f755471aaa1a9d9U,
  0x999498778d7c515aU, 0x9c919fa39a9d9da4U, 0x848c75869a96a0a1U, 0x74887f6971758c82U,
  0xaeaea8a8b49dada8U, 0x806362597c7d84aaU, 0xb5b9c499a2986a89U, 0x70637f8588929ca8U,
  0xb199b4ab9c988d72U, 0x807c82797883a8b3U, 0x6c8aa394a7a8aba4U, 0xc585847b4e716e67U,
  0x826f7ac0b2c1bac6U, 0xb4b881837e56605eU, 0x7f819180a897a2acU, 0xaaa3bc9b96988b76U,
  0x91853f6e518b8181U, 0x93cdccd2b5ceb581U, 0x393c4f20333c9c7bU, 0xbfc2c8ced592a191U,
  0x60606277897ea5ceU, 0x9d8d847e857b6263U, 0xd5af98ad9c9d9287U, 0x8ca6b3a799a77893U,
  0x9086bda494a6b896U, 0x928ea78b7c9c968bU, 0xb0d1beb796bc9d8bU, 0x9ea483908ea48b8fU,
  0xb284a7d79ea994b2U, 0x7ba392a5b5a6acafU, 0x9ea0b7889a948b9aU, 0x737b949991b1baa0U,
  0xc8cab28ba0d48e7fU, 0x848d7e869d989ca5U, 0xa59b93ae94938d97U, 0x9e8aa08193aec593U,
  0x989a96989e9091acU, 0x979a95959880827dU, 0x9d7075797f788595U, 0xc0bdbcbbb4b08d99U,
  0x26244b4f628d8e9cU, 0xe5aec6d161645934U, 0x5a365bb7b2c0ebdbU, 0xbfb76c745c282519U,
  0x769d8ea3b1b5b5abU, 0x9ca49373686d7573U, 0x787ca69299a59fb0U, 0xaf839a89554e3460U,
  0x8c8a85b5afb1bcbaU, 0xc3b6aaa0b1657a7bU, 0x45564963a094a1bcU, 0xb3c3c49fb6943861U,
  0x8188827d7a9d97abU, 0x738f676aa09d898dU, 0xa9929e9ca3a86271U, 0x846d63768db092a3U,
  0xc393aea79a9b9f78U, 0x394d3db47b9ed3c8U, 0xd7d68c97761a550fU, 0x79775d64bbb8bcd9U,
  0x98a69aa1aaa34064U, 0xa9a97983618f628aU, 0x6b896d95b4b8c2a4U, 0xc2859083877f7682U,
  0x8d85a89a7c83a2c5U, 0xb0a7f0c78f7dc5a7U, 0x7bc1bb807d929291U, 0x7fb39597af9cc788U,
  0xbbbb92e4b4a49a75U, 0xc99e7096c4817987U, 0x767bb29f81c6acc6U, 0x89c5eda68b9cc388U,
  0x96b48f8e878cb490U, 0x9695a38c98b79486U, 0x889b8e9cd8aca399U, 0x8d94b99db472a889U,
  0x78b593af879fd7a7U, 0xc795a28a6b885fb6U, 0x8a736ab1a4b5b8baU, 0xb0a4718d85453a5bU,
  0x7da892a6a897aaa9U, 0x7c788080818b9a95U, 0xb9c29f94977d857cU, 0x649c7997b0bc9fafU,
  0x89878b5e7b5f6758U, 0x7e79b8c0b2a4a6afU, 0x8ba0b1a876717a90U, 0x5a62577d5d748b8aU,
  0x96a8d3d0e59dc094U, 0x7534224e3b442faeU, 0xb7b2c4bcc6bd7b85U, 0xb8aba4be98a1a486U,
  0xaeaa9e95b8b4b193U, 0x949da4c0adc599b8U, 0xa4b3a79e9da89ca8U, 0xb49ba7a69d80899fU,
  0x9da5bd9a97a4c2acU, 0xb6a9a89ac398a9b0U, 0x9dabb5c193a79ca7U, 0xaea09ea5a990a789U,
  0x8fa0adb0aaa2a9a1U, 0x9aa5bda7ab98a396U, 0x95b1af96bba4bdb1U, 0xc1aa8e919393a196U,
  0xa59fa69e9b9f96b3U, 0xaca4d09a9d897d9eU, 0x87cc85987c99ae95U, 0x8f996d9dc2bfca98U,
  0x9099757faca27f6dU, 0xd28f9e9d93b49daeU, 0x7d918dbcaf98c0c5U, 0xa2e2dcad868f7297U,
  0x6cad74707c999277U, 0x87bea491c2c8787bU, 0x897f8e87c2ab7a88U, 0xb7ac8bb5c19f8889U,
  0x738a95909690cb96U, 0xc1cbae9d84beaba0U, 0xa7a9a27ba9998e80U, 0x9b4f5b589e6d70a1U,
  0x9f69a8b5aaa8a9a3U, 0xc5c84373683c605cU, 0x46878799d9efebb4U, 0xbbbba822355a1500U,
  0xb36599a4b6cdd7deU, 0x9275909b8262896cU, 0x8287a9918486868dU, 0x729a938975a3a69fU,
  0xc0a1a7a47d75726eU, 0x9380828ca696ba9fU, 0xbda586a9a7657f79U, 0x608c9882948b9db8U,
  0xb6bdaa808d8c8488U, 0x3c459b759fcdc6c6U, 0xd2a7959e204b1c57U, 0x735a7db0afa8d8d5U,
  0x959f8c878f40435dU, 0xad949a808f8d9594U, 0xa7a16fb5a8b99eaeU, 0x91a48f8397636170U,
  0x97718c6e7464767cU, 0xb3b7c1c9cccf9baeU, 0x78672f42505f5450U, 0x8db1a9b997c7b071U,
  0x808c897e93929d87U, 0x8b8a788a7f868b8aU, 0x3e562fe48b929e95U, 0x3d74b10f3d8ea820U,
  0x3ea9ff233dfe4f66U, 0xbf617f52bf15dd8fU, 0x3d573ddd3d626156U, 0x3da1ab253d842b98U,
  0x3da0d9bc3dfc032eU, 0x3e5210263d8eab0bU, 0xbf80b3143d8c0ed0U, 0x3d9aa7ba3e877c13U,
  0xbee302f23dbb96f3U, 0x3f0f4d3dbe016f84U, 0xbe4016a83d594e68U, 0xbcf99310bda4e509U,
  0xbd558eeb3f206a39U, 0x3befcd573e994f88U, 0x3e1f37433e5bc69bU, 0x3eec43193e3a59f6U,
  0xbd8298983eaaafbaU, 0x3e8b1b693edd4c50U, 0x3e240cad3ef8fc7dU, 0x3f07008f3f34707fU,
  0xbe30e16f3d007669U, 0xbe8f0e28be290b6fU, 0xbc0541983e814a23U, 0x3ecd8aa33eea7adfU,
  0x3f1d7c703d7d0b39U, 0xbddd26ab3da53fe9U, 0xbe8e64ef3f0b265cU, 0x3ec98cb8bdf0c51aU,
  0x3d32b61c3ef9af47U, 0x3e44a217bd5705adU, 0x3eb3d4413ea32c42U, 0xbe3a4874bde7a8afU,
  0x3e61d6b9bd0bae5eU, 0x3e3f3cd23e377e80U, 0x3e2659bbbed530a0U, 0x3e4618c3bec8b864U,
  0xbd404605bda6f1f3U, 0xbd7dc159be9f7a7dU, 0xbe89db393e26f403U, 0xbd89be74bebabd35U,
  0x3d450c24bdfd10b2U, 0xbdb3d679bec81676U, 0x3bb82701be162a8aU, 0x3d6e53cfbe8b77adU,
  0xbc453e123ec383c8U, 0x3e917818be21a887U, 0xbd3c6d373eacd3a0U, 0x3e83528dbe7a6110U,
  0xbe2c4877be89679fU, 0x3f1640bf3ee1f035U, 0x3d1a4d94bc875898U, 0xbec2d02abe3251d6U,
  0x3f30acdd3f2e2a8bU, 0x3f2ddc423f3ce959U, 0x3f399742be8871d3U, 0xbc8bb7273f284c4fU,
  0xbe8e5a7d3ee2a1d2U, 0x3ef005b03cdc73d6U, 0x3d7356593f1a5a10U, 0xbdf6437fbf05885cU,
  0xbd8ea1f03e753530U, 0x3d45e4c23e97fe81U, 0xbe92d18abedcd5d6U, 0xbea316a4befac65eU,
  0xbd6276873ead1abbU, 0x3e0307b9bec97f4fU, 0x3ce80669bea3d821U, 0xbea215e53ec8aa44U,
  0x3e65d6a9bdd47a63U, 0xbe93d321bf457877U, 0x3e42e5573e0fbc0aU, 0xbeacd868be95f06bU,
  0xbf298da5be833f2eU, 0xbe95b2c2bf3eb09eU, 0xbe858f343e8a5799U, 0x3df3abccbf0f9f0cU,
  0xbf24d7adbe855577U, 0xbf174aa73e0b3cf2U, 0x3dba9052bf24c882U, 0x3ec5e3e93f3918caU,
  0x3e5fbcf3bee0a40fU, 0xbec63110bebd38d4U, 0x3f24fbde3f556525U, 0x3f46d8fb3ee35fe3U,
  0x3ef487863dd52980U, 0xbe2a9ca93f1d5d0cU, 0xbe5fede03f410987U, 0x3ed8f000be46002fU,
  0x3e7302833ccc59deU, 0x3e0cb7203e093b9aU, 0x3d587d913e8a9aacU, 0xbe99a1f9bf201adfU,
  0xbd7aa03fbe23723cU, 0xbed7c2dfbe1fcfd8U, 0xbec8a5eabeac51dbU, 0x3e033ae3bd4eb36eU,
  0x3e70fc4ebe38cc31U, 0x3b938dde3dec093aU, 0x3e96d57dbf366a2eU, 0x3e49957d3e7dee06U,
  0xbe5290583eab8f5eU, 0xbe002c7e3e89d509U, 0x3ea40bcdbe5c738eU, 0x3ec14728be42a905U,
  0x3f2135683ecac00dU, 0xbdd22c30bc35aff1U, 0xbe50aa5a3e884c76U, 0xbda830123eb5b959U,
  0xbe0398e73ea7a63eU, 0xbdbb2ff53d8b85f2U, 0x3ddeac50bede8c5fU, 0x3efa0d9e3e87a9efU,
  0x3e56ffb23d7f0618U, 0x3ecace3ebe604d3dU, 0x3e5addbc3ed63ce7U, 0x3f8f32103e3b2147U,
  0xbf11452ebefcc395U, 0x3ecaf6893f5010b2U, 0xbe5a019f3ee3edb3U, 0x3de27deebf8b5aadU,
  0xbfcdfcde3ebdae22U, 0x3f06f6c23f230c58U, 0x3f0f3d29bfa2b871U, 0xbd6e8e72beb4bdf5U,
  0x3d6e8e59U,
};


ai_handle g_network_weights_table[1 + 2] = {
  AI_HANDLE_PTR(AI_MAGIC_MARKER),
  AI_HANDLE_PTR(s_network_weights_array_u64),
  AI_HANDLE_PTR(AI_MAGIC_MARKER),
};

